01010010111000001000101110101011
01100011101010000101110111000001
01100111101010101010111011010100
01001101011011110100100100000111
10110100110010010111011011110000
11010101111101000101111001101111
10111001010001010010011101010011
10101101111000101101011100000001
11110110000110011100100010110100
10100000001110101101101101001111
10110111011010011110010100100011
00100101101000111110010001110100
11001001011001101100100010000001
11100001000010011000000100010011
10001101110010101010110111001010
11101011110010110111011101010101
01110110001010100011010111110011
00110100100100110110111110100101
01000010111110110000001000000010
01010100101101101010110110011100
10010001000000011011011010110101
10110011101001100011011110010111
01110110111111100100110011000110
10001001100100001001111001011100
01010110101111111100010011001001
01000011010010001001010010100111
01011100111101010001011101011010
11100010101010111000100110111010
10000000011000110101100101110101
10110001100111001001010001011110
00011010100101001100101011000000
10101001101110101000100011100100
10111100001011110100111101111101
10001010110100100111101101101111
00010010001011011100101000100011
11010111111101100110010010100100
00110001000000000111010111011100
00101101111000001101011000101101
00111000111010010001110111110101
00010011100100011010110000110111
01100111011100101101110000011111
11001101100111110010000111010011
10100111011100110001100000000100
00101111011000000100101001111100
11000100010100001100100111100101
11011100111101100111101110110101
00110110101011101011110111111101
10011010010011010001010110010011
11110100110010111011100010110001
10011001100000001110000011011001
11010100111100111011111001110011
11000111100110101001011011100010
10101101100111110010111001000000
11111110100101101110110010110101
00011101000011101010010101010001
00001111011101011010111111010111
01011100110001110111010000010000
11100011011010011000010000011011
11011001010010111101111100100111
11110011110011110111100100100010
11110111101110110000011001111010
10111000000100101001110101110110
00101011000111001000111100011101
10000000011100000001000111101000
10110001001010111000010111101010
00101000100101000000110010111011
11011110100101110000001101111011
01000000101011011010011101101010
10101110001101101000000110110011
11001000111101101001000101010010
00100001101010000011110110010011
01101010000011101100100111110001
10010110100111001111110111011010
10110001111101110100000110100111
00111101101110000111010001110001
11010011000110000000011100100100
00000100111111010101110001110100
00010111001101101000101100010111
10100000100010101001100000111000
00000110001100011011000110010010
00100000100000101001101000010000
10110001111111001111100100100011
10000100100001111100001111010111
00100101101000000111111011011110
11001010001001111100101010001101
01101101110000010101011111011011
11001010111001011101000001111001
11101101100110110100011000011100
01010111100011010000111000000100
11001111111010010100110111000100
01010100110111000101001111001000
00110100000000011100110010100111
00001010011011010100001100011100
00011100011110111001111100001111
10011100100011011100010111010101
01111010000110101010000111011000
01101010100010011000111100100101
11010110100110001000101100001001
11101001111001111010111101100000
00111101100110111111011000101100
01011111100011101101010001001010
00011100110111100101011000010010
00101011011001101101111000101101
00011111110101011011011111110010
11110000101011101010101011101101
01100010100101110100001100010101
10111001111001001111110000000110
01001111100001100001101111110010
01111100001001000100001101011011
01010011011101001101011001100101
11110001011010010010000111110111
10011001000001011001010010010001
10010100101111111010110110001000
10110001101111101100011110110000
10110010101100110100001001100001
01011110011000110011010110011101
00001010000010100101100000010000
11111100000001101101011011110001
11011110111011001010111001011000
11110011000001100001101011100001
01010100110010111011100001000111
00000001100100010110001011011000
00101011101111000011001001110111
10110000000101110001010111001110
00111100100100100010100111111101
00101010101000001110010001110010
01000011100110011000111000010000
10111110011111100110111100111110
00000001001110110000011111000001
01111100000000110110001010110010
01111010110001110101110111101011
10110110111011101100011000111101
01110101100100100000110100100011
00110011100100011001010111010010
10000000100000110000111111011000
00001100000111111100010100100101
11101111100101110111011000000001
00011100110011110100100110011111
01010111100111100011011001010010
11011110100011110000000101101111
00110001110100011110000001111001
10000111000001001010100101110010
01000001011011111100000011111110
11011110010000000110100001001111
00100101101011011010111110011010
11100111001001010011000011110101
11001011010100011000110011011110
10001010111101111001110100111000
10010000111001111100011011010011
01001110000000110011001101101111
01110111101110001011111010110000
00010110100010101001001100110001
11100101100010100101001100000010
01111100111010010101001101110100
11101111011100001000110011111110
00101111001001101111011100011000
11100111110011100001010110010011
01000011100001111011100101111010
10011000000001000011100010101111
01110100101010010000100010000101
10111111000010000110100110111010
11000001111100100000000101001000
10000111001000110000111000001000
11011111001111001000010110000111
10100001101101001100001001000110
11001000111000111100100011110011
10101000101001011110010110110111
01001110100111010111111010100110
10100101101010101001111111100111
