100111011110100110001111000000111111011110010101100011001011000110111110100001100110001000111101000011101101001100001000010011001101010001111101101111110100010111101001001111111111100111001011000010001111000100111011000100111111011111110110001100010011111011010110000011110010110100110100
111000101010010101011100010000000011001011010010101000000110001101001001011011111010011100101001001011000001100111110011001100001010110011011011110100101010000001011110110011010101000110001110110000111111000001001101111001110000111011000111011001101001011011111010001000000001011001110000
111011001011010111101011101000100100010101010001010011010010111111000011001101010010011001101001000110000000001001110110111000101000100001101001110001100100000111000000110100111110110111111111001011100011101101011111110010011011010011110110111110110101100101011001011000010000010110111111
100101000001010111001011001001010000001111000011001100000100011110100011110101011011010100101011111110110101111111111000100100111100110111110000111011010001011011011110100111111000001010010010100101110100100000100110000111000010011001011010111110100100011110001000000000110010110101110000
111101110011100110010111001001001101011000101000101000111010011101000011110110111001100101110000101001001010110001101111111001101101101000000011110001010111111101111101010010001010010011011001111010111001110110010101000000100101000000011011100111110101111010011000110100000000111011010011
100011100000100110001101010010010011001101001110000011100001010011011010010001001010101100100010001010011100101001010110110111111101000010100011100111010100011001111110010011100011110100110111011010000101010100100001100011000111110101000011000001001010111111110101110000110101001101011100
110101101111110111011011100000000011010011111101110010011110111111100101110001110010111101101011000010010100110111100100101010110010111110010101010101000001100001101000111101000101010111010000101000111110100011111100000001001110101010011101001111110011011111010010011000010011111101110000
010101000010111100111001110101100011110100111010000010001100011100100000101010100101010001110001011101110110111000010011001110110101010001001011011100001011111011101110100110000000111001011001100001110101110010110100011110111011111110000110100010100100101000111011001111000011010101111100
000111111101110111111100111000010111010000111011011100111111000011101010110010100100110001100100110000010110100101101101011010001000011011000000100111110101000010010010101001111100110110010000010000111101001101011110110110000010100011000010101011000100000101101110100011000010100111101011
010011111110100000001010011011101111110000001000011111000110100011011000010000011000101100010100110010000110011001111010110010001100111110101011000001100000100110000101001011110010000011001111110001000011010111011010110111111100111011110011110100110001001010110111110101100001011011001001
101001000011110111001010100100011001111110100101111111000111011010011111010010100001001110000001000110110100100100111101011000100001100000101000010000111100101110111100110010011100111001100001000011000010010011001010001010100000111000011111100011100010000110010000001010110010111000110100
001011001100011101110101001001001100111000111100110001010001001110001110000110111111111101011110001000101010101110010000101100010010001001110110000000011011111111101010111100010110010000100100010101001110000011101111100000011110101110100111010000010001011000001011100010111000101011110011
011101001001010001101001110111110010101001100111010000001101110011001100101010010010011101100110101111001001101110011011111110001111101110010010011001010111001100011101011101000110011011000101100011010100010010111111001000100001000001110111000011011000001010101011011000110010010001000010
101101010011101100111010110110010101100110100100111001001101111110100100011100001110001110100001100110101101001110010101101110010101100101110001101101111101000110011001001000001011100100000000111100001011001111110110000001011100011110110110000101110000110010001011001110100110111001110010
100011111111001001111001110111001101001011111111011101110111011011000000110010000010011000001010011001010010000110101110100100111000111101110011011110111000100101010100010010111010101001011011101000000110001101010000101111001100111010100111100011111000010010001100110000101010100011100101
100001110111001011000001010110110111110011101011010110001000100111000110000100101101000110001001010010000000001100000010100110101101101111110100001101101110111000110111101000010101000011101010000000101010101000110101000111111100001010100110111001010011111111001100110101000111011011100001
101001001000111101010001111000100010000101111111011101100100001101011110110000010110111010101010000110011101110000101000011110010111000011111011110011011011111000011000001111111111001110110110111111110110011100000111001010110011101010000001001010010100000010001000011011010100000001001101
111111000000000100000101110000001010111011011000111110110011010111100011110100100001110101000111011100001000010101101100001010010111101001100101101011010010111110111101111011011111001100000110010010000100010000010011101100010110111110001111100010011011100110100011110001100110100110000010
111111011010000101100000101000000110010111000010011111101111111100111100001101111100011101101000010110100111000000001111010111000001000100111011000111011101110010110011101011000100010011110011000010000101000111101110001101001100101001000000000011011100001101101110000010110100100111001000
110010110100000110111111011011001111110000011000111000100010100011110000000101111100010101000100100010110110100101111111110111010001011000011000001101101101110000011001110001110111110111111000011101001100001100001111101010011000011000101110110110011101111011000111110101110011000111000011
010100101110101101101111010101011101000000001100010001110000111100101010100100110100100101101011101111001010001001111001110111010111000000111100110111001011010011001011000000000110110111101000100000001100001000000100011000110010011110101111111000000010011011000110110110101101011000001001
011000111011101000010101001010110111100011110000110111111010010101000100110000010110010000011101110100111101101100010110101010000111101010011110110101010010111111011001100101000001101101010100110100111100000010101111110010110100001000011000001101011001011100111000110100011111011010010110
110101000111010110011100011000100001110111000111000100001111001001010101001000000111010001110000001111111111001101010001001111000111000000001110101101100000110101100111010010000101000011001111001111111110010110101010001101011100101101010011110001011100100101010100000011000110001100001000
111010010101111111011111011100000001111010111000010010101111111101110010100010110101110111011101011111111011001101110111011101010011111111101110111110110101011101011010101011100000011100001000010001110100000000010110111010100000001101010010010111110111001010010101100101011111111100111001
010110101101000000111100110010111000000010011010011011100010001011000110000101010000110111000110110011101110010000111100011100000100010011110001110011110011111100111011011010111010011110110110111101100111101001000100110000000101101010101001010000101000000010010110110110111100110011100011
110111000010001101011011000001110110000100001011111101000111101101101101011100111011001010011100110011011111010000110110100011001111101000010000001111000001110000001010110110110001101001111011100110110011010010101000100001001110101010011001001011111000101001000010110001001001001001101110
011010011111001001111010011101100110000100100100100010000101010100110111111100010000101110101010101101100000011010100110011011001101110110001000010010111101011101010110011100011110100011101000111011111010100001101011101000000000010001000010100001100101100010001010001101010111011101101000
001000110000011100101000011110010010001011101010101001101111100000011011110001001101011101111100001101010101101011111011000100101010001100111000011001010100001000100010110100011111011000100100000000110100100100110010000100011110010101110100110011010011110111100010010101101000011111100101
110100101000101111010110000011100001010110100101101000000010101011100110001100110000110000110001100100010100001110101100101100111101011100001010110101001101011000111100110111100011101110001100001110001011000000011000101000010011110100111100100001101110100000111000001110011011010101111011
110100010111110110010110101110111110111111110100011001100001110101110101100110000101001111011101001000101101011111010010001111101110011011101011111111010101110011110101101110000001101011100101110110110011001100001001101010101010100011011101101111111001111111101101011000100110111110101101
100111101101110000010100001111111111001101110111110011111010000101111011011001001101000011001010001111111101011111101111001111000101010000110011010001111010000101100001001111110100001001001001011000011001101000110000111011001110100000100001100001001001100000010010100110011110110111111000
000001100100011000100011100010110010011101011011011110101110001001001111111111111011010011000011010111001100110000000101110100111111100100100010110110011100101101010001010000001011010001010001001101000101111111111111011101001011000011100000001111111100001010110000010001010001101011101001
011100110001111000111001011111100110010001010110010110111000000011100101101110100100011001100001111011101111110100011100010110101000111000010111011101111100010000010010101110100111010100110001011111011010001111000001001011011110001110010111001111101110001001111100100001101001010010000010
110000000101101011100101011011111011000101011111001010110001000011101100110100110111101101010111001101110000101100101011001110001100111010111101001010011011011011011111111000001110101001001011010011001011110011011101010011100011110100101000011001100010001111110100110000111001010100100010
100101101100000001101011101110011011101011101000110100111000111101010010010001100011011001010000101010011100010110010000100001111110111101000111011011111011111101001010001000100011100011100001101011011110001010100000000110001100100101000000011111001110101000011111100001101111101111001010
001100111100000100010101000001001111010000000111110100100011001101001100011000011001001101000000001101100011010110001100000101100110011001011010110100011100000001011111111100101111101000101111110000001111010111101100111010001001100110010111000011001011001001001001010100101001010001001101
101010110000110111001010110001010001111000100010111011101101001001000110101110010010110111101011100110110010000000110000011010010011011110110101111001101000010100001100010110011110001110001001011000101001000011100001001010100010011101000001011000011010000110111110001101010100100000111111
001010001010010010111010000111110010001111011011110001111110011111110100110100001001001100100011000101010100101001000010100110100000111111110111001101100011111001100001001010001100010010001010100100100101110101101000001110101000001101000010100010000111111110100100011011110010011000110111
110110000100000110000101110000101101010000000101100001010111111101111100100000000000001011000010111000101101111000001001010100110001111111100011100010001001011100101101011001100001101010011110110010100010100111010110000000101110110101000100110111100110101110110110010111100000111111011111
010111011001110010011111001100110000001100001100011001000101110101010000111001010001000000010110001111000111101111000001101000000011100000011101101101100110000011110011100110000010001011010000011110001000101100000101110101010100010110101010111101100111000110111100110111100100101111011001
110001001001011001100100111011010011100001100101100101101011101110101000000100011000111100011001111101111111100100011000001010110110001010110111111100110101010011011101100110010101110010011001001101111010010110011011101001010010101110011011011001111110110100000101000100010110010000110010
111101010011101111011111110100100101100001001110100000011000001110111111011101110011101010001011110001110000111110000110000110011011100100011011111101110001011011010011001111101100101110101001011011010010110010010001101011101000000110100001001110110100111000101010110010011101110011000001
100101010001110110001100111000010000000010001101010011011101110111010111100011011010100001011010101101101010011101100001101110000101100010110100010111000010110000000011101110111100101101110000011010001011000110000000011100010011101101000010001100010101010011011100010001111011111110000110
011010111111111100111110011100000000111111101011110000001111000010110000001100010000001001001010010100100011111110010011101000011001011010011011000010011001001111010111101101110110110100011011100111001000011000101010000101111001110010110110111000111100001111110010110101011111101010011000
010011010011110101010001010001011010001001100011101110001101100010100010011110100001101110110100000100101000001011010110010010101110110101100111010010011100111000011010101100011010010101011000101111111101110111001111110100001010101001010001011100100100100111100010011011101111000100101100
110111010001011000100110110100111110110111110011000111011001010010101001111111000000101010011111000010111100101011000111000100111010111001011011001101000000100010110110111111111010010011001110011100111011101010000011110000011001110100001001001110100000001101010100110111011001010101110111
010001011100101100100110111000010001000011110011111111100110111101111001000110001000011110101110010001100100010010110010010000011001011010111000001001111111101000001001101001010001101101101000010101010110100101111011010001101011010000100011101000110000010100011011100110010001100001110000
100011011100001111010000011011001101011110001101000100110100000000101101001111010110101100000110011000010100000011100111101000000100011101011101011110000011101101111110000001000111011010100111001100011110101010100111100001110100101011000111101000011110111001001000001110111010101001100010
101100001011110100001001000101101111100110000101001000001010000011100100100110101100011011000001001010111001110001010001001011100101101101100110011110110000110010001110100100110011101010000101111011011010101011101111100111101001010110001101010110100111011100100010000110011011001110000011
101010010100101011110111110011110011010000001001111001111010010110000100111100000111110111101101110001101111100001100010101101100000101011001010010100001000110101010000111010110111110011010000001110010001101000001010000110100110000111010101100111101000111111000010110010111011110111001000
001111110011110000101010100101010100111010001000101100101001011001010010100000111110101000111000101101101100010111000100101000000000100111110010111101111011111000010001010000101101110110110011011010001011001010000100111010000100010001100010100111000101000111010101101010000011101000110001
001101110001110000001110011111011101110101111010100110010011011000000100101101010101011001011001011010100000010011011011010000011101100101111000100000010010111000100001111011010100000011001011101111101011101011111111110101000110001110010101010101110010010000101010111010101001101000100111
011000001111001110100111001011001111010011010110000011100111010000011111001011010110010000111100100110001100011001100110101001100010101001110001110100010001000001001110101101011100100111111111111110011100010111101100011101000001101100001000111010100100010001010000000100111100110111001100
101010101010001110011101110111110001000000100101100011001010110001001010111000011001010000001000111100110001101111101000010001111101111000010101010011011010011100010000110110100111101101011000000010100101000101111011001100011000100011101011010000001001001011011011110101011011100110101000
100000010101110000000100110001010010010010010011000100001101100110110010100101100011101010001000000010100101000001100100011011111000000110110100100000100001000010011001000110011010111110010011001000110100000111111010100111110001010100101000000111000110001101110001100001111111111011001011
010000100101000110100111100000010010011011011011010101100110101100000101101100000010110000000010001011110010101111001001011110101011010101011101001011101010110110110110011100011011111010100011001010100011000011000011011001000110010100011101010111100110000010100000001101001000101011010100
000101001011001100001101111110101110100110011011011111101101011110001001100100000100111101000111110010001111001110000010010011011110010010011100100001110000010101101011100100011010011001010001010011100000111001101111011111101001110011100010001001001101111000011011110101001101000111110001
101010011000000100001111100011000101101011100011111100000011001111000111110111100010111110001110011000010011101010000011110000011000001110000011000111011010011000000010101111101100101110110101110011100001010110101100110111100100001001010101110010011011000011110001011011010110000001011000
000101111110111101111110101000000111011001011101000010010100011001110001111100110001011010000110001101001010111101100000100111100101011001010010000101110010001001001010001110000011001111001001100100011000010110001110000000111110010010011011111011101111111010111010010010011001011000010010
000110101001111000110101001011011100100111000011000100011111011011110000110011111100000010000011101010011011001100011011110110011101001101110101111011001111001110111001000111111010110100001011110001000100001111100010010000010100110011101111100110110011111001101001010110111000111110101101
000111011001100000111111101000000010101011110110001111011101001111010101101110010011000111110000111001101001010010000101110111000001001110101111100001100100001110111011101000101011100101000100011101011011111110000010001101100110001000001101011010001110110010011111000010001000100011010101
001100000011010111001011001001101001111011010100001011101100000101100010100011000111101101001110111101010111101111010001111101101101010001011111011101011110011001101000001000011010011111000000110101001000111100000101001101110000111000011111000111100101000001000110111011011100011000010011
111001111010011110001000001111011111011010010100101100011000101000111000110001111110100010101110111111011101100001111110100111010100111100001110010010001010111000011101001001011000000010011110000001100101111111100001000100000100100101011010100000010111110110100010101010010001100001011101
111100111011000001011001000001010111000000001100101010100000001001110110011001110010011111101111000011011110000010011100110000101111111001110111111010001100100111001111000111111001011001001010101110101000101101001100010001000110111110011101011100001001000010100010100111100100000100110010
000000000000000000000000000000000000000000000000000000000000000000000000000000000000000000000000000000000000000000000000000000000000000000000000000000000000000000000000000000000000000000000000000000000000000000000000000000000000000000000000000000000000000000000000000000000000000000000000
000000000000000000000000000000000000000000000000000000000000000000000000000000000000000000000000000000000000000000000000000000000000000000000000000000000000000000000000000000000000000000000000000000000000000000000000000000000000000000000000000000000000000000000000000000000000000000000000
000000000000000000000000000000000000000000000000000000000000000000000000000000000000000000000000000000000000000000000000000000000000000000000000000000000000000000000000000000000000000000000000000000000000000000000000000000000000000000000000000000000000000000000000000000000000000000000000
000000000000000000000000000000000000000000000000000000000000000000000000000000000000000000000000000000000000000000000000000000000000000000000000000000000000000000000000000000000000000000000000000000000000000000000000000000000000000000000000000000000000000000000000000000000000000000000000
000000000000000000000000000000000000000000000000000000000000000000000000000000000000000000000000000000000000000000000000000000000000000000000000000000000000000000000000000000000000000000000000000000000000000000000000000000000000000000000000000000000000000000000000000000000000000000000000
000000000000000000000000000000000000000000000000000000000000000000000000000000000000000000000000000000000000000000000000000000000000000000000000000000000000000000000000000000000000000000000000000000000000000000000000000000000000000000000000000000000000000000000000000000000000000000000000
000000000000000000000000000000000000000000000000000000000000000000000000000000000000000000000000000000000000000000000000000000000000000000000000000000000000000000000000000000000000000000000000000000000000000000000000000000000000000000000000000000000000000000000000000000000000000000000000
000000000000000000000000000000000000000000000000000000000000000000000000000000000000000000000000000000000000000000000000000000000000000000000000000000000000000000000000000000000000000000000000000000000000000000000000000000000000000000000000000000000000000000000000000000000000000000000000
000000000000000000000000000000000000000000000000000000000000000000000000000000000000000000000000000000000000000000000000000000000000000000000000000000000000000000000000000000000000000000000000000000000000000000000000000000000000000000000000000000000000000000000000000000000000000000000000
000000000000000000000000000000000000000000000000000000000000000000000000000000000000000000000000000000000000000000000000000000000000000000000000000000000000000000000000000000000000000000000000000000000000000000000000000000000000000000000000000000000000000000000000000000000000000000000000
000000000000000000000000000000000000000000000000000000000000000000000000000000000000000000000000000000000000000000000000000000000000000000000000000000000000000000000000000000000000000000000000000000000000000000000000000000000000000000000000000000000000000000000000000000000000000000000000
000000000000000000000000000000000000000000000000000000000000000000000000000000000000000000000000000000000000000000000000000000000000000000000000000000000000000000000000000000000000000000000000000000000000000000000000000000000000000000000000000000000000000000000000000000000000000000000000
000000000000000000000000000000000000000000000000000000000000000000000000000000000000000000000000000000000000000000000000000000000000000000000000000000000000000000000000000000000000000000000000000000000000000000000000000000000000000000000000000000000000000000000000000000000000000000000000
000000000000000000000000000000000000000000000000000000000000000000000000000000000000000000000000000000000000000000000000000000000000000000000000000000000000000000000000000000000000000000000000000000000000000000000000000000000000000000000000000000000000000000000000000000000000000000000000
000000000000000000000000000000000000000000000000000000000000000000000000000000000000000000000000000000000000000000000000000000000000000000000000000000000000000000000000000000000000000000000000000000000000000000000000000000000000000000000000000000000000000000000000000000000000000000000000
000000000000000000000000000000000000000000000000000000000000000000000000000000000000000000000000000000000000000000000000000000000000000000000000000000000000000000000000000000000000000000000000000000000000000000000000000000000000000000000000000000000000000000000000000000000000000000000000
000000000000000000000000000000000000000000000000000000000000000000000000000000000000000000000000000000000000000000000000000000000000000000000000000000000000000000000000000000000000000000000000000000000000000000000000000000000000000000000000000000000000000000000000000000000000000000000000
000000000000000000000000000000000000000000000000000000000000000000000000000000000000000000000000000000000000000000000000000000000000000000000000000000000000000000000000000000000000000000000000000000000000000000000000000000000000000000000000000000000000000000000000000000000000000000000000
000000000000000000000000000000000000000000000000000000000000000000000000000000000000000000000000000000000000000000000000000000000000000000000000000000000000000000000000000000000000000000000000000000000000000000000000000000000000000000000000000000000000000000000000000000000000000000000000
000000000000000000000000000000000000000000000000000000000000000000000000000000000000000000000000000000000000000000000000000000000000000000000000000000000000000000000000000000000000000000000000000000000000000000000000000000000000000000000000000000000000000000000000000000000000000000000000
000000000000000000000000000000000000000000000000000000000000000000000000000000000000000000000000000000000000000000000000000000000000000000000000000000000000000000000000000000000000000000000000000000000000000000000000000000000000000000000000000000000000000000000000000000000000000000000000
